<blank> 0
<unk> 1
a 2
ab 3
ac 4
acom 5
ad 6
ag 7
age 8
agen 9
ai 10
ail 11
ain 12
al 13
alo 14
am 15
ama 16
amin 17
an 18
ang 19
anh 20
ao 21
apo 22
ar 23
arch 24
at 25
atar 26
au 27
ay 28
b 29
ba 30
ban 31
bank 32
be 33
ber 34
bi 35
bo 36
box 37
by 38
c 39
ca 40
ce 41
cel 42
ch 43
chat 44
cher 45
ck 46
cker 47
co 48
cola 49
com 50
combank 51
d 52
da 53
dai 54
de 55
dy 56
e 57
ean 58
eb 59
ebook 60
ee 61
el 62
em 63
en 64
ent 65
eo 66
eon 67
er 68
era 69
ero 70
erry 71
es 72
est 73
et 74
etro 75
ew 76
f 77
fa 78
fe 79
ff 80
fi 81
fire 82
g 83
ga 84
ger 85
go 86
gri 87
h 88
hone 89
i 90
ia 91
ic 92
il 93
in 94
ine 95
ines 96
ing 97
inh 98
io 99
ion 100
ip 101
is 102
it 103
iệ 104
iệm 105
iện 106
iệng 107
iệp 108
iệt 109
iệu 110
j 111
k 112
ka 113
ke 114
ki 115
kin 116
ky 117
l 118
la 119
lan 120
lay 121
ld 122
le 123
let 124
li 125
lide 126
line 127
lip 128
ll 129
llo 130
llow 131
lo 132
lu 133
lus 134
m 135
mar 136
mart 137
me 138
n 139
net 140
ng 141
nger 142
nh 143
o 144
od 145
og 146
oga 147
oi 148
ok 149
ol 150
om 151
ome 152
on 153
one 154
ones 155
ong 156
ook 157
ooth 158
op 159
or 160
ort 161
os 162
ot 163
ote 164
oth 165
oto 166
ou 167
oup 168
ow 169
ox 170
oà 171
oài 172
oàn 173
p 174
pa 175
page 176
pe 177
per 178
ph 179
po 180
port 181
pp 182
ppo 183
ppy 184
pt 185
pu 186
q 187
qu 188
qua 189
r 190
ra 191
rain 192
rd 193
re 194
ream 195
ri 196
ria 197
rl 198
ro 199
rry 200
rus 201
rush 202
ry 203
s 204
sa 205
se 206
sh 207
shi 208
si 209
sia 210
sin 211
ss 212
st 213
ster 214
t 215
ta 216
te 217
tel 218
ter 219
th 220
tok 221
ton 222
tu 223
u 224
ua 225
ud 226
ui 227
um 228
un 229
ung 230
up 231
ur 232
us 233
ut 234
uto 235
uy 236
uôi 237
uố 238
uốc 239
uối 240
uốn 241
uống 242
uốt 243
v 244
va 245
ve 246
vel 247
ver 248
vi 249
vid 250
view 251
w 252
x 253
xi 254
xit 255
xy 256
y 257
ye 258
ym 259
z 260
za 261
zada 262
ze 263
zza 264
à 265
ài 266
àn 267
àng 268
ành 269
ào 270
ày 271
á 272
ác 273
ách 274
ái 275
ám 276
án 277
áng 278
ánh 279
áo 280
áp 281
át 282
áu 283
áy 284
â 285
âm 286
ân 287
âng 288
âu 289
ây 290
ã 291
ãi 292
ãn 293
ãng 294
ão 295
ãy 296
è 297
èm 298
èn 299
èo 300
é 301
éc 302
ém 303
én 304
éo 305
ép 306
ét 307
ê 308
êm 309
ên 310
êng 311
êu 312
ì 313
ìa 314
ìm 315
ìn 316
ình 317
í 318
ía 319
ích 320
ính 321
ít 322
ò 323
òa 324
òe 325
òi 326
òm 327
òn 328
òng 329
ó 330
óa 331
óc 332
ói 333
óm 334
ón 335
óng 336
óp 337
ót 338
ô 339
ôi 340
ôm 341
ôn 342
ông 343
õ 344
õi 345
õm 346
õng 347
ù 348
ùa 349
ùi 350
ùm 351
ùn 352
ùng 353
ùy 354
ú 355
úa 356
úc 357
úi 358
úm 359
ún 360
úng 361
úp 362
út 363
ý 364
ýp 365
ýt 366
ă 367
ăm 368
ăn 369
ăng 370
đ 371
ĩ 372
ĩnh 373
ũ 374
ũa 375
ũi 376
ũng 377
ơ 378
ơi 379
ơm 380
ơn 381
ơng 382
ơu 383
ư 384
ưa 385
ưng 386
ưu 387
ương 388
ướ 389
ước 390
ướn 391
ướng 392
ướp 393
ướt 394
ười 395
ường 396
ưởng 397
ưỡ 398
ưỡng 399
ượ 400
ược 401
ượng 402
ượt 403
ạ 404
ạc 405
ạch 406
ại 407
ạm 408
ạn 409
ạng 410
ạnh 411
ạo 412
ạp 413
ạt 414
ạy 415
ả 416
ải 417
ảm 418
ản 419
ảng 420
ảnh 421
ảo 422
ảy 423
ấ 424
ấc 425
ấm 426
ấn 427
ấng 428
ấp 429
ất 430
ấu 431
ấy 432
ầ 433
ầm 434
ần 435
ầng 436
ầu 437
ầy 438
ẩ 439
ẩm 440
ẩn 441
ẩu 442
ẩy 443
ẫm 444
ẫn 445
ẫng 446
ẫu 447
ẫy 448
ậ 449
ậc 450
ậm 451
ận 452
ập 453
ật 454
ậu 455
ậy 456
ắc 457
ắk 458
ắm 459
ắn 460
ắng 461
ắp 462
ắt 463
ằm 464
ằn 465
ằng 466
ẳm 467
ẳn 468
ẳng 469
ẵm 470
ẵn 471
ẵng 472
ặc 473
ặm 474
ặn 475
ặng 476
ặp 477
ặt 478
ẹ 479
ẹn 480
ẹo 481
ẹp 482
ẹt 483
ẻ 484
ẻm 485
ẻo 486
ẽ 487
ẽn 488
ế 489
ếc 490
ếch 491
ếm 492
ến 493
ếng 494
ếp 495
ết 496
ếu 497
ề 498
ềm 499
ền 500
ềng 501
ều 502
ể 503
ểm 504
ển 505
ểng 506
ểu 507
ễ 508
ễm 509
ễn 510
ễu 511
ệ 512
ện 513
ệnh 514
ệt 515
ỉ 516
ỉa 517
ỉm 518
ỉnh 519
ị 520
ịa 521
ịch 522
ịn 523
ịp 524
ọ 525
ọa 526
ọc 527
ọi 528
ọn 529
ọng 530
ọt 531
ỏ 532
ỏi 533
ỏm 534
ỏng 535
ố 536
ốc 537
ối 538
ốm 539
ốn 540
ống 541
ốp 542
ốt 543
ồ 544
ồi 545
ồm 546
ồn 547
ồng 548
ổ 549
ổi 550
ổng 551
ỗ 552
ỗi 553
ỗng 554
ộ 555
ộc 556
ội 557
ộm 558
ộn 559
ộng 560
ộp 561
ột 562
ớ 563
ới 564
ớm 565
ớn 566
ớp 567
ớt 568
ờ 569
ời 570
ờm 571
ờn 572
ờng 573
ở 574
ởi 575
ỡ 576
ỡi 577
ỡn 578
ợ 579
ợc 580
ợi 581
ợm 582
ợn 583
ợp 584
ợt 585
ụ 586
ục 587
ụi 588
ụng 589
ụp 590
ụt 591
ủ 592
ủa 593
ủi 594
ủn 595
ủng 596
ủy 597
ứ 598
ứa 599
ức 600
ứng 601
ứt 602
ừ 603
ừa 604
ừng 605
ử 606
ửa 607
ửi 608
ửng 609
ữ 610
ữa 611
ững 612
ữu 613
ự 614
ựa 615
ực 616
ựng 617
ựt 618
ỳ 619
ỳnh 620
ỵ 621
ỷ 622
ỹ 623
▁ 624
▁a 625
▁ac 626
▁acc 627
▁ad 628
▁aeon 629
▁agri 630
▁agribank 631
▁ai 632
▁al 633
▁alb 634
▁album 635
▁alo 636
▁am 637
▁an 638
▁anh 639
▁ao 640
▁app 641
▁apple 642
▁aqua 643
▁asean 644
▁at 645
▁auto 646
▁av 647
▁avatar 648
▁b 649
▁ba 650
▁baby 651
▁bai 652
▁ban 653
▁bang 654
▁banh 655
▁bank 656
▁bao 657
▁bar 658
▁bay 659
▁bb 660
▁be 661
▁bee 662
▁ben 663
▁beng 664
▁beo 665
▁bi 666
▁bia 667
▁bid 668
▁bida 669
▁bidv 670
▁big 671
▁bigc 672
▁bill 673
▁bim 674
▁bin 675
▁binh 676
▁biu 677
▁biên 678
▁biếc 679
▁biến 680
▁biếng 681
▁biết 682
▁biếu 683
▁biển 684
▁biểu 685
▁biện 686
▁biệt 687
▁bla 688
▁blo 689
▁block 690
▁blu 691
▁bluet 692
▁bluetooth 693
▁bo 694
▁body 695
▁bom 696
▁bon 697
▁bong 698
▁book 699
▁boss 700
▁boy 701
▁bu 702
▁buff 703
▁buffet 704
▁bum 705
▁bun 706
▁bung 707
▁buôn 708
▁buông 709
▁buýt 710
▁buốt 711
▁buồi 712
▁buồm 713
▁buồn 714
▁buồng 715
▁buổi 716
▁buộc 717
▁bye 718
▁bà 719
▁bài 720
▁bàn 721
▁bàng 722
▁bành 723
▁bào 724
▁bày 725
▁bá 726
▁bác 727
▁bách 728
▁bái 729
▁bám 730
▁bán 731
▁bánh 732
▁báo 733
▁bát 734
▁báu 735
▁bây 736
▁bã 737
▁bãi 738
▁bão 739
▁bè 740
▁bèn 741
▁bèo 742
▁bé 743
▁bén 744
▁béo 745
▁bét 746
▁bê 747
▁bên 748
▁bênh 749
▁bêu 750
▁bì 751
▁bìa 752
▁bình 753
▁bí 754
▁bích 755
▁bính 756
▁bít 757
▁bò 758
▁bó 759
▁bóc 760
▁bói 761
▁bón 762
▁bóng 763
▁bóp 764
▁bót 765
▁bô 766
▁bôi 767
▁bôn 768
▁bông 769
▁bõ 770
▁bù 771
▁bùa 772
▁bùi 773
▁bùm 774
▁bùn 775
▁bùng 776
▁bú 777
▁búa 778
▁bún 779
▁búp 780
▁bút 781
▁băm 782
▁băn 783
▁băng 784
▁bơ 785
▁bơi 786
▁bơm 787
▁bư 788
▁bưng 789
▁bưu 790
▁bươn 791
▁bước 792
▁bướm 793
▁bướng 794
▁bướu 795
▁bưởi 796
▁bạ 797
▁bạc 798
▁bạch 799
▁bại 800
▁bạn 801
▁bạo 802
▁bạt 803
▁bả 804
▁bản 805
▁bảng 806
▁bảnh 807
▁bảo 808
▁bảy 809
▁bấm 810
▁bấp 811
▁bất 812
▁bấy 813
▁bầm 814
▁bần 815
▁bầu 816
▁bầy 817
▁bẩm 818
▁bẩn 819
▁bẩy 820
▁bẫy 821
▁bậc 822
▁bận 823
▁bập 824
▁bật 825
▁bậy 826
▁bắc 827
▁bắn 828
▁bắp 829
▁bắt 830
▁bằm 831
▁bằng 832
▁bẹp 833
▁bẻ 834
▁bế 835
▁bến 836
▁bếp 837
▁bết 838
▁bề 839
▁bền 840
▁bể 841
▁bển 842
▁bệ 843
▁bệnh 844
▁bệt 845
▁bỉ 846
▁bỉm 847
▁bỉnh 848
▁bị 849
▁bịa 850
▁bịch 851
▁bịp 852
▁bịt 853
▁bịu 854
▁bọ 855
▁bọc 856
▁bọn 857
▁bọng 858
▁bọt 859
▁bỏ 860
▁bỏng 861
▁bố 862
▁bốc 863
▁bối 864
▁bốn 865
▁bống 866
▁bốp 867
▁bốt 868
▁bồ 869
▁bồi 870
▁bồn 871
▁bồng 872
▁bổ 873
▁bổn 874
▁bổng 875
▁bỗng 876
▁bộ 877
▁bộc 878
▁bội 879
▁bộn 880
▁bột 881
▁bới 882
▁bớt 883
▁bờ 884
▁bời 885
▁bờm 886
▁bở 887
▁bởi 888
▁bỡ 889
▁bợ 890
▁bục 891
▁bụi 892
▁bụng 893
▁bụp 894
▁bụt 895
▁bức 896
▁bứt 897
▁bừa 898
▁bừng 899
▁bửu 900
▁bữa 901
▁bự 902
▁bực 903
▁c 904
▁ca 905
▁cafe 906
▁cai 907
▁cam 908
▁camera 909
▁campuch 910
▁campuchia 911
▁can 912
▁cana 913
▁canada 914
▁canh 915
▁canxi 916
▁cao 917
▁card 918
▁cau 919
▁cave 920
▁cay 921
▁ch 922
▁cha 923
▁chai 924
▁chan 925
▁chang 926
▁chanh 927
▁chao 928
▁chat 929
▁chay 930
▁che 931
▁check 932
▁checkin 933
▁chen 934
▁cherry 935
▁chi 936
▁chia 937
▁chim 938
▁chinh 939
▁chiêm 940
▁chiên 941
▁chiêu 942
▁chiếc 943
▁chiếm 944
▁chiến 945
▁chiết 946
▁chiếu 947
▁chiều 948
▁chiểu 949
▁cho 950
▁choáng 951
▁chu 952
▁chua 953
▁chui 954
▁chun 955
▁chung 956
▁chuy 957
▁chuyên 958
▁chuyến 959
▁chuyền 960
▁chuyển 961
▁chuyện 962
▁chuông 963
▁chuẩn 964
▁chuối 965
▁chuốt 966
▁chuồn 967
▁chuồng 968
▁chuỗi 969
▁chuộc 970
▁chuộng 971
▁chuột 972
▁chà 973
▁chài 974
▁chàng 975
▁chành 976
▁chào 977
▁chán 978
▁chánh 979
▁cháo 980
▁cháp 981
▁chát 982
▁cháu 983
▁cháy 984
▁châm 985
▁chân 986
▁châu 987
▁chè 988
▁chèn 989
▁chèo 990
▁chém 991
▁chén 992
▁chéo 993
▁chép 994
▁chét 995
▁chê 996
▁chênh 997
▁chì 998
▁chìa 999
▁chìm 1000
▁chí 1001
▁chích 1002
▁chín 1003
▁chính 1004
▁chíp 1005
▁chít 1006
▁chòi 1007
▁chó 1008
▁chóc 1009
▁chói 1010
▁chóng 1011
▁chót 1012
▁chôm 1013
▁chôn 1014
▁chông 1015
▁chùa 1016
▁chùi 1017
▁chùm 1018
▁chú 1019
▁chúa 1020
▁chúc 1021
▁chúng 1022
▁chút 1023
▁chăm 1024
▁chăn 1025
▁chăng 1026
▁chơi 1027
▁chư 1028
▁chưa 1029
▁chưng 1030
▁chương 1031
▁chước 1032
▁chướng 1033
▁chườm 1034
▁chưởng 1035
▁chạc 1036
▁chạm 1037
▁chạnh 1038
▁chạp 1039
▁chạy 1040
▁chả 1041
▁chải 1042
▁chảnh 1043
▁chảo 1044
▁chảy 1045
▁chấm 1046
▁chấn 1047
▁chấp 1048
▁chất 1049
▁chầm 1050
▁chần 1051
▁chầu 1052
▁chẩn 1053
▁chậm 1054
▁chập 1055
▁chật 1056
▁chậu 1057
▁chắc 1058
▁chắn 1059
▁chắp 1060
▁chắt 1061
▁chằm 1062
▁chằng 1063
▁chẳng 1064
▁chẵn 1065
▁chặn 1066
▁chặng 1067
▁chặt 1068
▁chẽ 1069
▁chế 1070
▁chết 1071
▁chỉ 1072
▁chỉnh 1073
▁chị 1074
▁chịch 1075
▁chịu 1076
▁chọc 1077
▁chọi 1078
▁chọn 1079
▁chọt 1080
▁chốc 1081
▁chối 1082
▁chốn 1083
▁chống 1084
▁chốt 1085
▁chồi 1086
▁chồn 1087
▁chồng 1088
▁chổi 1089
▁chổng 1090
▁chỗ 1091
▁chớ 1092
▁chớm 1093
▁chớp 1094
▁chờ 1095
▁chờn 1096
▁chở 1097
▁chợ 1098
▁chợp 1099
▁chợt 1100
▁chục 1101
▁chụp 1102
▁chụt 1103
▁chủ 1104
▁chủng 1105
▁chứ 1106
▁chứa 1107
▁chức 1108
▁chứng 1109
▁chừ 1110
▁chừa 1111
▁chừng 1112
▁chửa 1113
▁chửi 1114
▁chữ 1115
▁chữa 1116
▁chững 1117
▁chực 1118
▁cit 1119
▁city 1120
▁clip 1121
▁co 1122
▁coca 1123
▁code 1124
▁coi 1125
▁coll 1126
▁collagen 1127
▁com 1128
▁combo 1129
▁comm 1130
▁comment 1131
▁con 1132
▁cong 1133
▁cont 1134
▁container 1135
▁cop 1136
▁copy 1137
▁covid 1138
▁crush 1139
▁cu 1140
▁cua 1141
▁cun 1142
▁cung 1143
▁cute 1144
▁cuốc 1145
▁cuối 1146
▁cuốn 1147
▁cuống 1148
▁cuồng 1149
▁cuộc 1150
▁cuộn 1151
▁cv 1152
▁cà 1153
▁cài 1154
▁càn 1155
▁càng 1156
▁cành 1157
▁cào 1158
▁cày 1159
▁cá 1160
▁các 1161
▁cách 1162
▁cái 1163
▁cám 1164
▁cán 1165
▁cánh 1166
▁cáo 1167
▁cáp 1168
▁cát 1169
▁cáu 1170
▁câm 1171
▁cân 1172
▁câu 1173
▁cây 1174
▁cãi 1175
▁cò 1176
▁còi 1177
▁còn 1178
▁còng 1179
▁có 1180
▁cóc 1181
▁cóp 1182
▁cô 1183
▁côi 1184
▁côn 1185
▁công 1186
▁cõi 1187
▁cõng 1188
▁cù 1189
▁cùi 1190
▁cùng 1191
▁cú 1192
▁cúc 1193
▁cúi 1194
▁cúm 1195
▁cún 1196
▁cúng 1197
▁cúp 1198
▁cút 1199
▁căm 1200
▁căn 1201
▁căng 1202
▁cũ 1203
▁cũng 1204
▁cơ 1205
▁cơm 1206
▁cơn 1207
▁cư 1208
▁cưa 1209
▁cưng 1210
▁cương 1211
▁cước 1212
▁cưới 1213
▁cướp 1214
▁cười 1215
▁cường 1216
▁cưỡi 1217
▁cưỡng 1218
▁cược 1219
▁cạch 1220
▁cạn 1221
▁cạnh 1222
▁cạo 1223
▁cạp 1224
▁cả 1225
▁cải 1226
▁cảm 1227
▁cản 1228
▁cảng 1229
▁cảnh 1230
▁cấm 1231
▁cấn 1232
▁cấp 1233
▁cất 1234
▁cấu 1235
▁cấy 1236
▁cầm 1237
▁cần 1238
▁cầu 1239
▁cầy 1240
▁cẩm 1241
▁cẩn 1242
▁cẩu 1243
▁cận 1244
▁cập 1245
▁cậu 1246
▁cậy 1247
▁cắc 1248
▁cắm 1249
▁cắn 1250
▁cắp 1251
▁cắt 1252
▁cằm 1253
▁cằn 1254
▁cẳng 1255
▁cặc 1256
▁cặn 1257
▁cặp 1258
▁cọ 1259
▁cọc 1260
▁cọng 1261
▁cọp 1262
▁cỏ 1263
▁cố 1264
▁cốc 1265
▁cối 1266
▁cốm 1267
▁cống 1268
▁cốp 1269
▁cốt 1270
▁cồ 1271
▁cồn 1272
▁cồng 1273
▁cổ 1274
▁cổng 1275
▁cỗ 1276
▁cộ 1277
▁cộc 1278
▁cội 1279
▁cộng 1280
▁cột 1281
▁cớ 1282
▁cờ 1283
▁cởi 1284
▁cỡ 1285
▁cụ 1286
▁cục 1287
▁cụm 1288
▁cụt 1289
▁củ 1290
▁của 1291
▁củi 1292
▁củng 1293
▁cứ 1294
▁cứng 1295
▁cứt 1296
▁cứu 1297
▁cừ 1298
▁cừu 1299
▁cử 1300
▁cửa 1301
▁cửu 1302
▁cữ 1303
▁cự 1304
▁cựa 1305
▁cực 1306
▁cựu 1307
▁d 1308
▁da 1309
▁dai 1310
▁dang 1311
▁danh 1312
▁dao 1313
▁data 1314
▁day 1315
▁de 1316
▁del 1317
▁delay 1318
▁di 1319
▁dinh 1320
▁diêm 1321
▁diên 1322
▁diêu 1323
▁diếc 1324
▁diếm 1325
▁diều 1326
▁diễm 1327
▁diễn 1328
▁diện 1329
▁diệp 1330
▁diệt 1331
▁diệu 1332
▁do 1333
▁doanh 1334
▁dong 1335
▁doãn 1336
▁du 1337
▁dung 1338
▁duy 1339
▁duyên 1340
▁duyệt 1341
▁duẩn 1342
▁duệ 1343
▁duỗi 1344
▁dài 1345
▁dàn 1346
▁dàng 1347
▁dành 1348
▁dào 1349
▁dày 1350
▁dái 1351
▁dám 1352
▁dán 1353
▁dáng 1354
▁dâm 1355
▁dân 1356
▁dâng 1357
▁dâu 1358
▁dây 1359
▁dã 1360
▁dãi 1361
▁dãy 1362
▁dè 1363
▁dép 1364
▁dét 1365
▁dê 1366
▁dì 1367
▁dìm 1368
▁dìu 1369
▁dí 1370
▁dính 1371
▁díu 1372
▁dò 1373
▁dòm 1374
▁dòng 1375
▁dóc 1376
▁dô 1377
▁dõi 1378
▁dù 1379
▁dùm 1380
▁dùng 1381
▁dúi 1382
▁dăm 1383
▁dĩ 1384
▁dĩa 1385
▁dũng 1386
▁dơ 1387
▁dơi 1388
▁dư 1389
▁dưa 1390
▁dưng 1391
▁dương 1392
▁dưới 1393
▁dường 1394
▁dưỡng 1395
▁dược 1396
▁dượng 1397
▁dạ 1398
▁dại 1399
▁dạn 1400
▁dạng 1401
▁dạo 1402
▁dạt 1403
▁dạy 1404
▁dải 1405
▁dấm 1406
▁dấn 1407
▁dấu 1408
▁dầm 1409
▁dần 1410
▁dầu 1411
▁dẫm 1412
▁dẫn 1413
▁dẫu 1414
▁dậm 1415
▁dập 1416
▁dậu 1417
▁dậy 1418
▁dắt 1419
▁dằn 1420
▁dặm 1421
▁dặn 1422
▁dẹo 1423
▁dẹp 1424
▁dẻ 1425
▁dẻo 1426
▁dế 1427
▁dề 1428
▁dễ 1429
▁dệt 1430
▁dị 1431
▁dịch 1432
▁dịp 1433
▁dịu 1434
▁dọa 1435
▁dọc 1436
▁dọn 1437
▁dốc 1438
▁dối 1439
▁dốt 1440
▁dồi 1441
▁dồn 1442
▁dỗ 1443
▁dỗi 1444
▁dội 1445
▁dột 1446
▁dời 1447
▁dở 1448
▁dỡ 1449
▁dợ 1450
▁dụ 1451
▁dục 1452
▁dụm 1453
▁dụng 1454
▁dứa 1455
▁dứt 1456
▁dừa 1457
▁dừng 1458
▁dữ 1459
▁dự 1460
▁dựa 1461
▁dựng 1462
▁e 1463
▁em 1464
▁email 1465
▁en 1466
▁eo 1467
▁eu 1468
▁euro 1469
▁ex 1470
▁f 1471
▁fa 1472
▁fac 1473
▁face 1474
▁facebook 1475
▁fan 1476
▁fanpage 1477
▁fi 1478
▁fifa 1479
▁file 1480
▁fire 1481
▁fo 1482
▁follow 1483
▁for 1484
▁form 1485
▁fpt 1486
▁fre 1487
▁free 1488
▁freefire 1489
▁fu 1490
▁full 1491
▁g 1492
▁ga 1493
▁gai 1494
▁gala 1495
▁gam 1496
▁game 1497
▁gan 1498
▁gang 1499
▁ganh 1500
▁gara 1501
▁gas 1502
▁gay 1503
▁gdp 1504
▁gel 1505
▁gen 1506
▁gh 1507
▁ghe 1508
▁ghen 1509
▁ghi 1510
▁ghim 1511
▁ghiền 1512
▁ghé 1513
▁ghép 1514
▁ghét 1515
▁ghê 1516
▁ghẹ 1517
▁ghẹo 1518
▁ghẻ 1519
▁ghế 1520
▁ghệ 1521
▁gi 1522
▁gia 1523
▁giai 1524
▁giam 1525
▁gian 1526
▁giang 1527
▁giao 1528
▁gieo 1529
▁giu 1530
▁giun 1531
▁già 1532
▁giàn 1533
▁giành 1534
▁giàu 1535
▁giày 1536
▁giá 1537
▁giác 1538
▁giám 1539
▁gián 1540
▁giáng 1541
▁giáo 1542
▁giáp 1543
▁giây 1544
▁giã 1545
▁giãn 1546
▁giêng 1547
▁giò 1548
▁giòn 1549
▁gió 1550
▁giông 1551
▁giùm 1552
▁giúp 1553
▁giăng 1554
▁giũ 1555
▁giơ 1556
▁giường 1557
▁giả 1558
▁giải 1559
▁giảm 1560
▁giản 1561
▁giảng 1562
▁giấc 1563
▁giấm 1564
▁giấu 1565
▁giấy 1566
▁giầy 1567
▁giận 1568
▁giật 1569
▁giằng 1570
▁giặc 1571
▁giặt 1572
▁giếm 1573
▁giếng 1574
▁giết 1575
▁giềng 1576
▁giọng 1577
▁giọt 1578
▁giỏ 1579
▁giỏi 1580
▁giống 1581
▁giỗ 1582
▁giới 1583
▁giờ 1584
▁giời 1585
▁giở 1586
▁giỡn 1587
▁giục 1588
▁giữ 1589
▁giữa 1590
▁giựt 1591
▁gm 1592
▁gmail 1593
▁go 1594
▁gold 1595
▁gom 1596
▁good 1597
▁goog 1598
▁google 1599
▁gr 1600
▁grab 1601
▁group 1602
▁gu 1603
▁guốc 1604
▁gym 1605
▁gà 1606
▁gài 1607
▁gàng 1608
▁gào 1609
▁gác 1610
▁gái 1611
▁gán 1612
▁gánh 1613
▁gáp 1614
▁gáy 1615
▁gân 1616
▁gâu 1617
▁gây 1618
▁gã 1619
▁gãi 1620
▁gãy 1621
▁gì 1622
▁gìn 1623
▁gò 1624
▁gòn 1625
▁gó 1626
▁góc 1627
▁gói 1628
▁góp 1629
▁gót 1630
▁gô 1631
▁gôn 1632
▁gõ 1633
▁gù 1634
▁gú 1635
▁gút 1636
▁găng 1637
▁gũi 1638
▁gư 1639
▁gươm 1640
▁gương 1641
▁gượng 1642
▁gạ 1643
▁gạc 1644
▁gạch 1645
▁gạo 1646
▁gạt 1647
▁gả 1648
▁gấm 1649
▁gấp 1650
▁gấu 1651
▁gầm 1652
▁gần 1653
▁gầu 1654
▁gầy 1655
▁gẫy 1656
▁gập 1657
▁gật 1658
▁gậy 1659
▁gắm 1660
▁gắn 1661
▁gắng 1662
▁gắp 1663
▁gắt 1664
▁gặm 1665
▁gặp 1666
▁gặt 1667
▁gọi 1668
▁gọn 1669
▁gọt 1670
▁gỏi 1671
▁gốc 1672
▁gối 1673
▁gốm 1674
▁gồ 1675
▁gồm 1676
▁gồng 1677
▁gỗ 1678
▁gội 1679
▁gộp 1680
▁gớm 1681
▁gờ 1682
▁gởi 1683
▁gỡ 1684
▁gợi 1685
▁gục 1686
▁gừng 1687
▁gửi 1688
▁h 1689
▁ha 1690
▁hack 1691
▁hai 1692
▁ham 1693
▁han 1694
▁hang 1695
▁hanh 1696
▁hao 1697
▁happy 1698
▁hay 1699
▁he 1700
▁hello 1701
▁hen 1702
▁heo 1703
▁hi 1704
▁hiu 1705
▁hiên 1706
▁hiếm 1707
▁hiến 1708
▁hiếp 1709
▁hiếu 1710
▁hiền 1711
▁hiểm 1712
▁hiển 1713
▁hiểu 1714
▁hiện 1715
▁hiệp 1716
▁hiệu 1717
▁ho 1718
▁hoa 1719
▁hoan 1720
▁hoang 1721
▁hoay 1722
▁hoi 1723
▁hom 1724
▁hon 1725
▁honda 1726
▁hot 1727
▁hotline 1728
▁hoà 1729
▁hoài 1730
▁hoàn 1731
▁hoàng 1732
▁hoành 1733
▁hoá 1734
▁hoán 1735
▁hoãn 1736
▁hoạch 1737
▁hoại 1738
▁hoạn 1739
▁hoạt 1740
▁hoảng 1741
▁hoắc 1742
▁hoằng 1743
▁hoặc 1744
▁hu 1745
▁hun 1746
▁hung 1747
▁huy 1748
▁huynh 1749
▁huyên 1750
▁huyết 1751
▁huyền 1752
▁huyện 1753
▁huyệt 1754
▁huân 1755
▁huê 1756
▁huấn 1757
▁huế 1758
▁huề 1759
▁huệ 1760
▁huống 1761
▁huỳnh 1762
▁hy 1763
▁hyun 1764
▁hyundai 1765
▁hà 1766
▁hài 1767
▁hàm 1768
▁hàn 1769
▁hàng 1770
▁hành 1771
▁hào 1772
▁hàu 1773
▁há 1774
▁hách 1775
▁hái 1776
▁hán 1777
▁háng 1778
▁háo 1779
▁hát 1780
▁hâm 1781
▁hân 1782
▁hã 1783
▁hãi 1784
▁hãm 1785
▁hãn 1786
▁hãng 1787
▁hãnh 1788
▁hãy 1789
▁hè 1790
▁hèn 1791
▁hé 1792
▁héc 1793
▁héo 1794
▁hét 1795
▁hê 1796
▁hên 1797
▁hì 1798
▁hình 1799
▁hí 1800
▁hít 1801
▁hò 1802
▁hòa 1803
▁hòm 1804
▁hòn 1805
▁hòng 1806
▁hóa 1807
▁hóc 1808
▁hói 1809
▁hóng 1810
▁hót 1811
▁hô 1812
▁hôi 1813
▁hôm 1814
▁hôn 1815
▁hông 1816
▁hù 1817
▁hùa 1818
▁hùm 1819
▁hùn 1820
▁hùng 1821
▁hú 1822
▁húc 1823
▁húp 1824
▁hút 1825
▁hăm 1826
▁hăng 1827
▁hũ 1828
▁hơ 1829
▁hơi 1830
▁hơn 1831
▁hư 1832
▁hưng 1833
▁hưu 1834
▁hương 1835
▁hước 1836
▁hướng 1837
▁hường 1838
▁hưởng 1839
▁hạ 1840
▁hạc 1841
▁hạch 1842
▁hại 1843
▁hạm 1844
▁hạn 1845
▁hạng 1846
▁hạnh 1847
▁hạo 1848
▁hạp 1849
▁hạt 1850
▁hả 1851
▁hải 1852
▁hảo 1853
▁hấp 1854
▁hất 1855
▁hấu 1856
▁hầm 1857
▁hầu 1858
▁hầy 1859
▁hẫng 1860
▁hận 1861
▁hậu 1862
▁hắc 1863
▁hắn 1864
▁hắt 1865
▁hằn 1866
▁hằng 1867
▁hẳn 1868
▁hẵng 1869
▁hẹ 1870
▁hẹn 1871
▁hẹp 1872
▁hẻm 1873
▁hến 1874
▁hết 1875
▁hề 1876
▁hễ 1877
▁hệ 1878
▁hệt 1879
▁hỉ 1880
▁họ 1881
▁họa 1882
▁học 1883
▁họng 1884
▁họp 1885
▁hỏ 1886
▁hỏa 1887
▁hỏi 1888
▁hỏng 1889
▁hố 1890
▁hốc 1891
▁hối 1892
▁hốt 1893
▁hồ 1894
▁hồi 1895
▁hồn 1896
▁hồng 1897
▁hổ 1898
▁hổi 1899
▁hổm 1900
▁hổng 1901
▁hỗ 1902
▁hỗn 1903
▁hộ 1904
▁hộc 1905
▁hội 1906
▁hộp 1907
▁hột 1908
▁hớ 1909
▁hớn 1910
▁hớt 1911
▁hờ 1912
▁hời 1913
▁hờn 1914
▁hở 1915
▁hỡi 1916
▁hợi 1917
▁hợp 1918
▁hụi 1919
▁hụt 1920
▁hủ 1921
▁hủy 1922
▁hứ 1923
▁hứa 1924
▁hức 1925
▁hứng 1926
▁hử 1927
▁hữu 1928
▁hực 1929
▁hỷ 1930
▁i 1931
▁ic 1932
▁id 1933
▁idol 1934
▁im 1935
▁in 1936
▁inbox 1937
▁ind 1938
▁indonesia 1939
▁inox 1940
▁inter 1941
▁internet 1942
▁ip 1943
▁ipad 1944
▁iphone 1945
▁j 1946
▁jean 1947
▁k 1948
▁ka 1949
▁kar 1950
▁karao 1951
▁karaoke 1952
▁ke 1953
▁kem 1954
▁ken 1955
▁keo 1956
▁kh 1957
▁kha 1958
▁khai 1959
▁khan 1960
▁khang 1961
▁khanh 1962
▁khao 1963
▁khay 1964
▁khe 1965
▁khen 1966
▁khi 1967
▁khinh 1968
▁khiêm 1969
▁khiêng 1970
▁khiêu 1971
▁khiếm 1972
▁khiến 1973
▁khiếp 1974
▁khiết 1975
▁khiếu 1976
▁khiển 1977
▁kho 1978
▁khoa 1979
▁khoai 1980
▁khoan 1981
▁khoang 1982
▁khoanh 1983
▁khoe 1984
▁khoác 1985
▁khoái 1986
▁khoán 1987
▁khoáng 1988
▁khoát 1989
▁khoét 1990
▁khoăn 1991
▁khoản 1992
▁khoảng 1993
▁khoảnh 1994
▁khu 1995
▁khui 1996
▁khung 1997
▁khuy 1998
▁khuya 1999
▁khuynh 2000
▁khuyên 2001
▁khuyến 2002
▁khuyết 2003
▁khuây 2004
▁khuê 2005
▁khuôn 2006
▁khuất 2007
▁khuấy 2008
▁khuẩn 2009
▁khà 2010
▁khàn 2011
▁khá 2012
▁khác 2013
▁khách 2014
▁khái 2015
▁khám 2016
▁khán 2017
▁kháng 2018
▁khánh 2019
▁khát 2020
▁khâm 2021
▁khâu 2022
▁khè 2023
▁khéo 2024
▁khép 2025
▁khét 2026
▁khê 2027
▁khí 2028
▁khía 2029
▁khích 2030
▁khít 2031
▁khò 2032
▁khó 2033
▁khóa 2034
▁khóc 2035
▁khói 2036
▁khóm 2037
▁khô 2038
▁khôi 2039
▁khôn 2040
▁không 2041
▁khùng 2042
▁khúc 2043
▁khăn 2044
▁khăng 2045
▁khơi 2046
▁khư 2047
▁khương 2048
▁khả 2049
▁khải 2050
▁khảo 2051
▁khấn 2052
▁khất 2053
▁khấu 2054
▁khẩn 2055
▁khẩu 2056
▁khắc 2057
▁khắp 2058
▁khắt 2059
▁khẳng 2060
▁khẽ 2061
▁khế 2062
▁khều 2063
▁khỉ 2064
▁khịa 2065
▁khỏ 2066
▁khỏa 2067
▁khỏe 2068
▁khỏi 2069
▁khốc 2070
▁khối 2071
▁khốn 2072
▁khống 2073
▁khổ 2074
▁khổng 2075
▁khớp 2076
▁khờ 2077
▁khởi 2078
▁khủng 2079
▁khứ 2080
▁khứa 2081
▁khử 2082
▁ki 2083
▁kia 2084
▁kim 2085
▁kinh 2086
▁kiêm 2087
▁kiên 2088
▁kiêng 2089
▁kiêu 2090
▁kiếc 2091
▁kiếm 2092
▁kiến 2093
▁kiếng 2094
▁kiếp 2095
▁kiềm 2096
▁kiều 2097
▁kiểm 2098
▁kiểng 2099
▁kiểu 2100
▁kiệm 2101
▁kiện 2102
▁kiệt 2103
▁kiệu 2104
▁kè 2105
▁kèm 2106
▁kèn 2107
▁kèo 2108
▁ké 2109
▁kém 2110
▁kén 2111
▁kéo 2112
▁kép 2113
▁két 2114
▁kê 2115
▁kênh 2116
▁kêu 2117
▁kì 2118
▁kìa 2119
▁kìm 2120
▁kí 2121
▁kích 2122
▁kín 2123
▁kính 2124
▁kíp 2125
▁kít 2126
▁ký 2127
▁kĩ 2128
▁kẹo 2129
▁kẹp 2130
▁kẹt 2131
▁kẻ 2132
▁kẻo 2133
▁kẽ 2134
▁kẽm 2135
▁kế 2136
▁kết 2137
▁kề 2138
▁kềnh 2139
▁kể 2140
▁kệ 2141
▁kỉ 2142
▁kị 2143
▁kịch 2144
▁kịp 2145
▁kỳ 2146
▁kỵ 2147
▁kỷ 2148
▁kỹ 2149
▁l 2150
▁la 2151
▁lag 2152
▁lai 2153
▁lam 2154
▁lan 2155
▁lang 2156
▁lanh 2157
▁lao 2158
▁laptop 2159
▁lau 2160
▁lay 2161
▁lazada 2162
▁le 2163
▁led 2164
▁lem 2165
▁len 2166
▁leo 2167
▁level 2168
▁li 2169
▁lia 2170
▁like 2171
▁lim 2172
▁lin 2173
▁linh 2174
▁link 2175
▁list 2176
▁liv 2177
▁live 2178
▁livest 2179
▁livestream 2180
▁liêm 2181
▁liên 2182
▁liêng 2183
▁liêu 2184
▁liếc 2185
▁liếm 2186
▁liền 2187
▁liều 2188
▁liễu 2189
▁liệt 2190
▁liệu 2191
▁lo 2192
▁loa 2193
▁loan 2194
▁loanh 2195
▁loay 2196
▁logo 2197
▁lon 2198
▁long 2199
▁lot 2200
▁lotte 2201
▁loài 2202
▁loãng 2203
▁loét 2204
▁loại 2205
▁loạn 2206
▁loạt 2207
▁loằng 2208
▁lu 2209
▁lui 2210
▁lum 2211
▁lung 2212
▁luy 2213
▁luyên 2214
▁luyến 2215
▁luyện 2216
▁luân 2217
▁luôn 2218
▁luẩn 2219
▁luận 2220
▁luật 2221
▁luồn 2222
▁luồng 2223
▁luộc 2224
▁ly 2225
▁là 2226
▁lài 2227
▁làm 2228
▁làn 2229
▁làng 2230
▁lành 2231
▁lào 2232
▁lá 2233
▁lác 2234
▁lách 2235
▁lái 2236
▁lán 2237
▁láng 2238
▁lánh 2239
▁láo 2240
▁lát 2241
▁lâm 2242
▁lân 2243
▁lâng 2244
▁lâu 2245
▁lây 2246
▁lã 2247
▁lãi 2248
▁lãm 2249
▁lãng 2250
▁lãnh 2251
▁lão 2252
▁lè 2253
▁lèm 2254
▁lèo 2255
▁lé 2256
▁lén 2257
▁léo 2258
▁lép 2259
▁lét 2260
▁lê 2261
▁lên 2262
▁lêu 2263
▁lì 2264
▁lìa 2265
▁lìn 2266
▁lí 2267
▁lính 2268
▁líp 2269
▁lít 2270
▁líu 2271
▁lò 2272
▁lòi 2273
▁lòng 2274
▁ló 2275
▁lóc 2276
▁lót 2277
▁lô 2278
▁lôi 2279
▁lông 2280
▁lõi 2281
▁lõm 2282
▁lù 2283
▁lùa 2284
▁lùi 2285
▁lùm 2286
▁lùn 2287
▁lùng 2288
▁lú 2289
▁lúa 2290
▁lúc 2291
▁lún 2292
▁lúng 2293
▁lút 2294
▁lý 2295
▁lăm 2296
▁lăn 2297
▁lăng 2298
▁lĩnh 2299
▁lũ 2300
▁lũng 2301
▁lũy 2302
▁lơ 2303
▁lư 2304
▁lưa 2305
▁lưng 2306
▁lưu 2307
▁lươn 2308
▁lương 2309
▁lưới 2310
▁lướt 2311
▁lười 2312
▁lườm 2313
▁lường 2314
▁lưỡi 2315
▁lưỡng 2316
▁lược 2317
▁lượm 2318
▁lượn 2319
▁lượng 2320
▁lượt 2321
▁lạ 2322
▁lạc 2323
▁lại 2324
▁lạm 2325
▁lạng 2326
▁lạnh 2327
▁lạp 2328
▁lạt 2329
▁lạy 2330
▁lả 2331
▁lảng 2332
▁lấn 2333
▁lấp 2334
▁lấy 2335
▁lầm 2336
▁lần 2337
▁lầu 2338
▁lầy 2339
▁lẩm 2340
▁lẩn 2341
▁lẩu 2342
▁lẫm 2343
▁lẫn 2344
▁lẫy 2345
▁lận 2346
▁lập 2347
▁lật 2348
▁lậu 2349
▁lậy 2350
▁lắc 2351
▁lắm 2352
▁lắng 2353
▁lắp 2354
▁lắt 2355
▁lằng 2356
▁lẳng 2357
▁lẵng 2358
▁lặn 2359
▁lặng 2360
▁lặp 2361
▁lặt 2362
▁lẹ 2363
▁lẹo 2364
▁lẹt 2365
▁lẻ 2366
▁lẻo 2367
▁lẽ 2368
▁lẽo 2369
▁lết 2370
▁lề 2371
▁lều 2372
▁lể 2373
▁lễ 2374
▁lệ 2375
▁lệch 2376
▁lệnh 2377
▁lị 2378
▁lịch 2379
▁lọ 2380
▁lọc 2381
▁lọt 2382
▁lỏng 2383
▁lố 2384
▁lốc 2385
▁lối 2386
▁lốp 2387
▁lốt 2388
▁lồ 2389
▁lồi 2390
▁lồn 2391
▁lồng 2392
▁lỗ 2393
▁lỗi 2394
▁lộ 2395
▁lộc 2396
▁lội 2397
▁lộn 2398
▁lộng 2399
▁lột 2400
▁lớ 2401
▁lớn 2402
▁lớp 2403
▁lờ 2404
▁lời 2405
▁lở 2406
▁lỡ 2407
▁lợi 2408
▁lợn 2409
▁lợp 2410
▁lụ 2411
▁lụa 2412
▁lục 2413
▁lụi 2414
▁lụm 2415
▁lụt 2416
▁lụy 2417
▁lủi 2418
▁lủng 2419
▁lứa 2420
▁lức 2421
▁lừ 2422
▁lừa 2423
▁lừng 2424
▁lửa 2425
▁lửng 2426
▁lữ 2427
▁lự 2428
▁lựa 2429
▁lực 2430
▁lựu 2431
▁m 2432
▁ma 2433
▁mai 2434
▁mail 2435
▁make 2436
▁makeup 2437
▁malay 2438
▁malaysia 2439
▁man 2440
▁mang 2441
▁manh 2442
▁mao 2443
▁map 2444
▁mar 2445
▁mark 2446
▁market 2447
▁marketing 2448
▁mass 2449
▁massage 2450
▁mau 2451
▁max 2452
▁may 2453
▁mc 2454
▁me 2455
▁men 2456
▁menu 2457
▁meo 2458
▁mes 2459
▁messenger 2460
▁mi 2461
▁mic 2462
▁micro 2463
▁milo 2464
▁min 2465
▁minh 2466
▁mini 2467
▁miu 2468
▁miên 2469
▁miêu 2470
▁miến 2471
▁miếng 2472
▁miết 2473
▁miếu 2474
▁miền 2475
▁miễn 2476
▁miện 2477
▁miệng 2478
▁miệt 2479
▁mo 2480
▁mobi 2481
▁mod 2482
▁moi 2483
▁mom 2484
▁momo 2485
▁mon 2486
▁mong 2487
▁mu 2488
▁mua 2489
▁mun 2490
▁muôn 2491
▁muối 2492
▁muốn 2493
▁muống 2494
▁muỗi 2495
▁muỗng 2496
▁muội 2497
▁muộn 2498
▁my 2499
▁mà 2500
▁mài 2501
▁màn 2502
▁màng 2503
▁mào 2504
▁màu 2505
▁mày 2506
▁má 2507
▁mác 2508
▁mách 2509
▁mái 2510
▁máng 2511
▁mánh 2512
▁mát 2513
▁máu 2514
▁máy 2515
▁mâm 2516
▁mâu 2517
▁mây 2518
▁mã 2519
▁mãi 2520
▁mãn 2521
▁mãng 2522
▁mãnh 2523
▁mão 2524
▁mè 2525
▁mèo 2526
▁mé 2527
▁méc 2528
▁méo 2529
▁mép 2530
▁mét 2531
▁mê 2532
▁mênh 2533
▁mì 2534
▁mìn 2535
▁mình 2536
▁mí 2537
▁mía 2538
▁mích 2539
▁mít 2540
▁mò 2541
▁mòn 2542
▁mó 2543
▁móc 2544
▁mói 2545
▁móm 2546
▁món 2547
▁móng 2548
▁móp 2549
▁mót 2550
▁mô 2551
▁môi 2552
▁môn 2553
▁mông 2554
▁mõm 2555
▁mù 2556
▁mùa 2557
▁mùi 2558
▁mùng 2559
▁múa 2560
▁múc 2561
▁múi 2562
▁mút 2563
▁măng 2564
▁mĩ 2565
▁mũ 2566
▁mũi 2567
▁mơ 2568
▁mư 2569
▁mưa 2570
▁mưu 2571
▁mươi 2572
▁mương 2573
▁mướn 2574
▁mướp 2575
▁mướt 2576
▁mười 2577
▁mường 2578
▁mượn 2579
▁mượt 2580
▁mạ 2581
▁mạc 2582
▁mạch 2583
▁mại 2584
▁mạn 2585
▁mạng 2586
▁mạnh 2587
▁mạo 2588
▁mạt 2589
▁mả 2590
▁mải 2591
▁mảng 2592
▁mảnh 2593
▁mất 2594
▁mấu 2595
▁mấy 2596
▁mầm 2597
▁mần 2598
▁mẩn 2599
▁mẩy 2600
▁mẫn 2601
▁mẫu 2602
▁mận 2603
▁mập 2604
▁mật 2605
▁mậu 2606
▁mắc 2607
▁mắm 2608
▁mắn 2609
▁mắng 2610
▁mắt 2611
▁mặc 2612
▁mặn 2613
▁mặt 2614
▁mẹ 2615
▁mẹo 2616
▁mẹt 2617
▁mẻ 2618
▁mẽ 2619
▁mến 2620
▁mề 2621
▁mềm 2622
▁mền 2623
▁mễ 2624
▁mệnh 2625
▁mệt 2626
▁mỉ 2627
▁mỉm 2628
▁mị 2629
▁mịn 2630
▁mịt 2631
▁mọ 2632
▁mọc 2633
▁mọi 2634
▁mọt 2635
▁mỏ 2636
▁mỏi 2637
▁mỏng 2638
▁mốc 2639
▁mối 2640
▁mốt 2641
▁mồ 2642
▁mồi 2643
▁mồm 2644
▁mồng 2645
▁mổ 2646
▁mỗ 2647
▁mỗi 2648
▁mộ 2649
▁mộc 2650
▁mộng 2651
▁một 2652
▁mớ 2653
▁mới 2654
▁mờ 2655
▁mời 2656
▁mở 2657
▁mỡ 2658
▁mợ 2659
▁mụ 2660
▁mục 2661
▁mụn 2662
▁mủ 2663
▁mức 2664
▁mứt 2665
▁mừng 2666
▁mực 2667
▁mỳ 2668
▁mỹ 2669
▁n 2670
▁na 2671
▁nai 2672
▁nail 2673
▁nam 2674
▁nan 2675
▁nang 2676
▁nao 2677
▁nay 2678
▁ne 2679
▁nem 2680
▁neo 2681
▁new 2682
▁ng 2683
▁nga 2684
▁ngan 2685
▁ngang 2686
▁ngao 2687
▁ngay 2688
▁ngh 2689
▁nghe 2690
▁nghen 2691
▁nghi 2692
▁nghiêm 2693
▁nghiên 2694
▁nghiêng 2695
▁nghiến 2696
▁nghiền 2697
▁nghiệm 2698
▁nghiện 2699
▁nghiệp 2700
▁nghiệt 2701
▁nghèo 2702
▁nghé 2703
▁nghén 2704
▁nghê 2705
▁nghênh 2706
▁nghêu 2707
▁nghìn 2708
▁nghĩ 2709
▁nghĩa 2710
▁nghẹn 2711
▁nghẹt 2712
▁nghẽn 2713
▁nghề 2714
▁nghệ 2715
▁nghỉ 2716
▁nghị 2717
▁nghịch 2718
▁ngo 2719
▁ngoan 2720
▁ngon 2721
▁ngoài 2722
▁ngoái 2723
▁ngoáy 2724
▁ngoãn 2725
▁ngoại 2726
▁ngoạn 2727
▁ngoải 2728
▁ngoằng 2729
▁ngoặc 2730
▁ngoặt 2731
▁ngu 2732
▁nguy 2733
▁nguyên 2734
▁nguyền 2735
▁nguyễn 2736
▁nguyện 2737
▁nguyệt 2738
▁nguôi 2739
▁nguồn 2740
▁nguội 2741
▁ngà 2742
▁ngài 2743
▁ngàn 2744
▁ngàng 2745
▁ngành 2746
▁ngào 2747
▁ngày 2748
▁ngác 2749
▁ngách 2750
▁ngán 2751
▁ngáo 2752
▁ngáp 2753
▁ngát 2754
▁ngáy 2755
▁ngâm 2756
▁ngân 2757
▁ngây 2758
▁ngã 2759
▁ngãi 2760
▁ngò 2761
▁ngòi 2762
▁ngó 2763
▁ngóc 2764
▁ngói 2765
▁ngón 2766
▁ngóng 2767
▁ngót 2768
▁ngô 2769
▁ngôi 2770
▁ngôn 2771
▁ngõ 2772
▁ngùng 2773
▁ngăn 2774
▁ngũ 2775
▁ngơ 2776
▁ngơi 2777
▁ngư 2778
▁ngưng 2779
▁ngưu 2780
▁ngươi 2781
▁ngước 2782
▁người 2783
▁ngưỡng 2784
▁ngược 2785
▁ngượng 2786
▁ngạc 2787
▁ngạch 2788
▁ngại 2789
▁ngạn 2790
▁ngạo 2791
▁ngạt 2792
▁ngả 2793
▁ngải 2794
▁ngấm 2795
▁ngất 2796
▁ngầm 2797
▁ngần 2798
▁ngầu 2799
▁ngẩn 2800
▁ngẩng 2801
▁ngẫm 2802
▁ngẫu 2803
▁ngậm 2804
▁ngập 2805
▁ngắc 2806
▁ngắm 2807
▁ngắn 2808
▁ngắt 2809
▁ngặt 2810
▁ngọ 2811
▁ngọc 2812
▁ngọn 2813
▁ngọng 2814
▁ngọt 2815
▁ngỏ 2816
▁ngố 2817
▁ngốc 2818
▁ngồi 2819
▁ngỗng 2820
▁ngộ 2821
▁ngộp 2822
▁ngột 2823
▁ngớ 2824
▁ngớt 2825
▁ngờ 2826
▁ngời 2827
▁ngỡ 2828
▁ngợi 2829
▁ngợm 2830
▁ngụ 2831
▁ngục 2832
▁ngụy 2833
▁ngủ 2834
▁ngủi 2835
▁ngứa 2836
▁ngừ 2837
▁ngừa 2838
▁ngừng 2839
▁ngửa 2840
▁ngửi 2841
▁ngữ 2842
▁ngự 2843
▁ngựa 2844
▁ngực 2845
▁nh 2846
▁nha 2847
▁nhai 2848
▁nham 2849
▁nhan 2850
▁nhang 2851
▁nhanh 2852
▁nhau 2853
▁nhe 2854
▁nhen 2855
▁nheo 2856
▁nhi 2857
▁nhiên 2858
▁nhiêu 2859
▁nhiếp 2860
▁nhiều 2861
▁nhiễm 2862
▁nhiễu 2863
▁nhiệm 2864
▁nhiệt 2865
▁nho 2866
▁nhoi 2867
▁nhom 2868
▁nhu 2869
▁nhung 2870
▁nhuyễn 2871
▁nhuần 2872
▁nhuận 2873
▁nhuộm 2874
▁nhà 2875
▁nhàm 2876
▁nhàn 2877
▁nhàng 2878
▁nhào 2879
▁nhá 2880
▁nhái 2881
▁nhám 2882
▁nhánh 2883
▁nháo 2884
▁nháp 2885
▁nhát 2886
▁nháy 2887
▁nhâm 2888
▁nhân 2889
▁nhây 2890
▁nhã 2891
▁nhãn 2892
▁nhão 2893
▁nhè 2894
▁nhèo 2895
▁nhé 2896
▁nhéo 2897
▁nhét 2898
▁nhì 2899
▁nhìn 2900
▁nhí 2901
▁nhích 2902
▁nhím 2903
▁nhíp 2904
▁nhòm 2905
▁nhó 2906
▁nhóc 2907
▁nhói 2908
▁nhóm 2909
▁nhót 2910
▁nhô 2911
▁nhôm 2912
▁nhông 2913
▁nhõm 2914
▁nhõng 2915
▁nhúc 2916
▁nhún 2917
▁nhúng 2918
▁nhút 2919
▁nhăm 2920
▁nhăn 2921
▁nhăng 2922
▁nhĩ 2923
▁nhũ 2924
▁nhũng 2925
▁nhơn 2926
▁như 2927
▁nhưng 2928
▁nhường 2929
▁nhưỡng 2930
▁nhược 2931
▁nhượng 2932
▁nhạc 2933
▁nhạn 2934
▁nhạt 2935
▁nhạy 2936
▁nhả 2937
▁nhảm 2938
▁nhảy 2939
▁nhấc 2940
▁nhấn 2941
▁nhấp 2942
▁nhất 2943
▁nhầm 2944
▁nhầy 2945
▁nhẫn 2946
▁nhận 2947
▁nhập 2948
▁nhật 2949
▁nhậu 2950
▁nhắc 2951
▁nhắm 2952
▁nhắn 2953
▁nhắt 2954
▁nhằm 2955
▁nhằn 2956
▁nhằng 2957
▁nhặt 2958
▁nhẹ 2959
▁nhẹn 2960
▁nhẹt 2961
▁nhẽ 2962
▁nhẽo 2963
▁nhề 2964
▁nhể 2965
▁nhện 2966
▁nhỉ 2967
▁nhị 2968
▁nhịn 2969
▁nhịp 2970
▁nhọ 2971
▁nhọc 2972
▁nhọn 2973
▁nhỏ 2974
▁nhốt 2975
▁nhồi 2976
▁nhổ 2977
▁nhộn 2978
▁nhột 2979
▁nhớ 2980
▁nhớt 2981
▁nhờ 2982
▁nhờn 2983
▁nhở 2984
▁nhỡ 2985
▁nhục 2986
▁nhủ 2987
▁nhức 2988
▁những 2989
▁nhựa 2990
▁ni 2991
▁nick 2992
▁nin 2993
▁ninh 2994
▁niu 2995
▁niêm 2996
▁niên 2997
▁niềm 2998
▁niệm 2999
▁no 3000
▁noi 3001
▁nom 3002
▁non 3003
▁nong 3004
▁note 3005
▁nu 3006
▁nung 3007
▁nuôi 3008
▁nuối 3009
▁nuốt 3010
▁nà 3011
▁nàn 3012
▁nàng 3013
▁nành 3014
▁nào 3015
▁này 3016
▁ná 3017
▁nách 3018
▁nái 3019
▁nám 3020
▁náo 3021
▁nát 3022
▁náy 3023
▁nâng 3024
▁nâu 3025
▁nã 3026
▁não 3027
▁nãy 3028
▁nè 3029
▁né 3030
▁ném 3031
▁nén 3032
▁nét 3033
▁nê 3034
▁nêm 3035
▁nên 3036
▁nêu 3037
▁ní 3038
▁ních 3039
▁nín 3040
▁nít 3041
▁níu 3042
▁nòng 3043
▁nó 3044
▁nóc 3045
▁nói 3046
▁nón 3047
▁nóng 3048
▁nô 3049
▁nôi 3050
▁nôm 3051
▁nôn 3052
▁nông 3053
▁núi 3054
▁núm 3055
▁núp 3056
▁nút 3057
▁năm 3058
▁năn 3059
▁năng 3060
▁nơ 3061
▁nơi 3062
▁nương 3063
▁nước 3064
▁nướng 3065
▁nạ 3066
▁nạc 3067
▁nại 3068
▁nạn 3069
▁nạo 3070
▁nạp 3071
▁nạt 3072
▁nải 3073
▁nản 3074
▁nảy 3075
▁nấc 3076
▁nấm 3077
▁nấu 3078
▁nấy 3079
▁nần 3080
▁nắm 3081
▁nắn 3082
▁nắng 3083
▁nắp 3084
▁nằm 3085
▁nẵng 3086
▁nặc 3087
▁nặn 3088
▁nặng 3089
▁nẹp 3090
▁nẻo 3091
▁nếm 3092
▁nến 3093
▁nếp 3094
▁nết 3095
▁nếu 3096
▁nề 3097
▁nền 3098
▁nể 3099
▁nệ 3100
▁nệm 3101
▁nỉ 3102
▁nị 3103
▁nịnh 3104
▁nịt 3105
▁nọ 3106
▁nọc 3107
▁nối 3108
▁nốt 3109
▁nồi 3110
▁nồm 3111
▁nồng 3112
▁nổ 3113
▁nổi 3114
▁nỗ 3115
▁nỗi 3116
▁nộ 3117
▁nội 3118
▁nộp 3119
▁nớ 3120
▁nới 3121
▁nờ 3122
▁nở 3123
▁nỡ 3124
▁nợ 3125
▁nụ 3126
▁nức 3127
▁nứng 3128
▁nứt 3129
▁nửa 3130
▁nữ 3131
▁nữa 3132
▁nực 3133
▁o 3134
▁oa 3135
▁oai 3136
▁oan 3137
▁oanh 3138
▁obama 3139
▁off 3140
▁ok 3141
▁om 3142
▁on 3143
▁ong 3144
▁onl 3145
▁online 3146
▁oppo 3147
▁ord 3148
▁order 3149
▁ot 3150
▁otp 3151
▁out 3152
▁oxi 3153
▁oxy 3154
▁oán 3155
▁oánh 3156
▁oát 3157
▁oải 3158
▁p 3159
▁pa 3160
▁pan 3161
▁par 3162
▁paris 3163
▁pass 3164
▁passport 3165
▁ph 3166
▁pha 3167
▁phai 3168
▁phan 3169
▁phang 3170
▁phanh 3171
▁phao 3172
▁phe 3173
▁phen 3174
▁phi 3175
▁philip 3176
▁philipp 3177
▁philippines 3178
▁phim 3179
▁phiên 3180
▁phiêu 3181
▁phiến 3182
▁phiếu 3183
▁phiền 3184
▁pho 3185
▁phom 3186
▁phone 3187
▁phong 3188
▁photo 3189
▁phu 3190
▁phun 3191
▁phà 3192
▁phàm 3193
▁phàn 3194
▁phàng 3195
▁phá 3196
▁phác 3197
▁phách 3198
▁phái 3199
▁phán 3200
▁pháo 3201
▁pháp 3202
▁phát 3203
▁phân 3204
▁phèn 3205
▁phèo 3206
▁phép 3207
▁phét 3208
▁phê 3209
▁phì 3210
▁phí 3211
▁phía 3212
▁phích 3213
▁phím 3214
▁phò 3215
▁phòng 3216
▁phó 3217
▁phóng 3218
▁phô 3219
▁phôi 3220
▁phông 3221
▁phù 3222
▁phùn 3223
▁phùng 3224
▁phú 3225
▁phúc 3226
▁phúng 3227
▁phút 3228
▁phũ 3229
▁phơi 3230
▁phương 3231
▁phước 3232
▁phường 3233
▁phượng 3234
▁phượt 3235
▁phạm 3236
▁phạt 3237
▁phả 3238
▁phải 3239
▁phản 3240
▁phấn 3241
▁phất 3242
▁phần 3243
▁phẩm 3244
▁phẩy 3245
▁phẫn 3246
▁phẫu 3247
▁phận 3248
▁phật 3249
▁phẳng 3250
▁phế 3251
▁phết 3252
▁phỏng 3253
▁phố 3254
▁phối 3255
▁phốt 3256
▁phồng 3257
▁phổ 3258
▁phổi 3259
▁phộng 3260
▁phớt 3261
▁phờ 3262
▁phở 3263
▁phụ 3264
▁phục 3265
▁phụng 3266
▁phủ 3267
▁phức 3268
▁pi 3269
▁pin 3270
▁pizza 3271
▁play 3272
▁plus 3273
▁po 3274
▁post 3275
▁pr 3276
▁pro 3277
▁pu 3278
▁pê 3279
▁qu 3280
▁qua 3281
▁quai 3282
▁quan 3283
▁quang 3284
▁quanh 3285
▁quao 3286
▁quay 3287
▁que 3288
▁quen 3289
▁queo 3290
▁quy 3291
▁quyên 3292
▁quyến 3293
▁quyết 3294
▁quyền 3295
▁quyển 3296
▁quà 3297
▁quàng 3298
▁quá 3299
▁quách 3300
▁quái 3301
▁quán 3302
▁quáng 3303
▁quánh 3304
▁quát 3305
▁quân 3306
▁quây 3307
▁quãng 3308
▁què 3309
▁quét 3310
▁quê 3311
▁quên 3312
▁quý 3313
▁quýnh 3314
▁quýt 3315
▁quăng 3316
▁quơ 3317
▁quạ 3318
▁quạo 3319
▁quạt 3320
▁quả 3321
▁quản 3322
▁quảng 3323
▁quấn 3324
▁quất 3325
▁quấy 3326
▁quần 3327
▁quầy 3328
▁quẩn 3329
▁quẩy 3330
▁quận 3331
▁quật 3332
▁quậy 3333
▁quắc 3334
▁quằn 3335
▁quẹo 3336
▁quẹt 3337
▁quẻ 3338
▁quế 3339
▁quốc 3340
▁quỳ 3341
▁quỳnh 3342
▁quỵ 3343
▁quỵt 3344
▁quỷ 3345
▁quỹ 3346
▁r 3347
▁ra 3348
▁rai 3349
▁ram 3350
▁ran 3351
▁rang 3352
▁ranh 3353
▁rao 3354
▁rau 3355
▁ray 3356
▁re 3357
▁ren 3358
▁reo 3359
▁rep 3360
▁res 3361
▁reset 3362
▁review 3363
▁ri 3364
▁rim 3365
▁rin 3366
▁rinh 3367
▁riêng 3368
▁riêu 3369
▁riết 3370
▁riềng 3371
▁ro 3372
▁rob 3373
▁robot 3374
▁roi 3375
▁ron 3376
▁rong 3377
▁room 3378
▁ru 3379
▁rum 3380
▁run 3381
▁rung 3382
▁ruốc 3383
▁ruồi 3384
▁ruộng 3385
▁ruột 3386
▁rà 3387
▁ràng 3388
▁rành 3389
▁rào 3390
▁rày 3391
▁rác 3392
▁rách 3393
▁rán 3394
▁ráng 3395
▁ráo 3396
▁ráp 3397
▁rát 3398
▁ráy 3399
▁râm 3400
▁râu 3401
▁rã 3402
▁rãi 3403
▁rãnh 3404
▁rè 3405
▁rèm 3406
▁rèn 3407
▁rén 3408
▁réo 3409
▁rét 3410
▁rê 3411
▁rên 3412
▁rêu 3413
▁rì 3414
▁rìa 3415
▁rình 3416
▁rít 3417
▁rò 3418
▁ròng 3419
▁rót 3420
▁rô 3421
▁rôn 3422
▁rõ 3423
▁rùa 3424
▁rúc 3425
▁rút 3426
▁răm 3427
▁răn 3428
▁răng 3429
▁rũ 3430
▁rơi 3431
▁rơm 3432
▁rư 3433
▁rưng 3434
▁rước 3435
▁rưỡi 3436
▁rượ 3437
▁rượt 3438
▁rượu 3439
▁rạch 3440
▁rạn 3441
▁rạng 3442
▁rạp 3443
▁rải 3444
▁rảnh 3445
▁rất 3446
▁rầm 3447
▁rần 3448
▁rầu 3449
▁rầy 3450
▁rẫy 3451
▁rậm 3452
▁rập 3453
▁rắc 3454
▁rắn 3455
▁rằm 3456
▁rằng 3457
▁rẻ 3458
▁rẽ 3459
▁rể 3460
▁rễ 3461
▁rệt 3462
▁rỉ 3463
▁rịa 3464
▁rọi 3465
▁rối 3466
▁rốn 3467
▁rốt 3468
▁rồ 3469
▁rồi 3470
▁rồng 3471
▁rổ 3472
▁rỗi 3473
▁rỗng 3474
▁rộ 3475
▁rộn 3476
▁rộng 3477
▁rớt 3478
▁rờ 3479
▁rời 3480
▁rỡ 3481
▁rụng 3482
▁rụt 3483
▁rủ 3484
▁rủa 3485
▁rủi 3486
▁rứa 3487
▁rứt 3488
▁rừng 3489
▁rửa 3490
▁rực 3491
▁s 3492
▁sa 3493
▁sacom 3494
▁sacombank 3495
▁sai 3496
▁sale 3497
▁sam 3498
▁sams 3499
▁samsung 3500
▁san 3501
▁sang 3502
▁sanh 3503
▁sao 3504
▁sapa 3505
▁sau 3506
▁say 3507
▁sc 3508
▁scan 3509
▁se 3510
▁search 3511
▁sen 3512
▁seo 3513
▁ser 3514
▁serum 3515
▁set 3516
▁setup 3517
▁sex 3518
▁sexy 3519
▁sh 3520
▁ship 3521
▁shipper 3522
▁shop 3523
▁shopee 3524
▁show 3525
▁si 3526
▁sim 3527
▁sin 3528
▁sing 3529
▁singapo 3530
▁singapore 3531
▁sinh 3532
▁size 3533
▁siêng 3534
▁siêu 3535
▁siết 3536
▁smart 3537
▁so 3538
▁socola 3539
▁sofa 3540
▁soi 3541
▁solo 3542
▁son 3543
▁song 3544
▁sorry 3545
▁soái 3546
▁soát 3547
▁soạn 3548
▁spa 3549
▁st 3550
▁sti 3551
▁sticker 3552
▁stor 3553
▁story 3554
▁stre 3555
▁stress 3556
▁su 3557
▁sui 3558
▁sum 3559
▁sun 3560
▁sung 3561
▁suy 3562
▁suôn 3563
▁suông 3564
▁suýt 3565
▁suất 3566
▁suối 3567
▁suốt 3568
▁sy 3569
▁syria 3570
▁sà 3571
▁sài 3572
▁sàn 3573
▁sàng 3574
▁sành 3575
▁sào 3576
▁sách 3577
▁sám 3578
▁sán 3579
▁sáng 3580
▁sánh 3581
▁sáo 3582
▁sáp 3583
▁sát 3584
▁sáu 3585
▁sâm 3586
▁sân 3587
▁sâu 3588
▁séc 3589
▁sét 3590
▁sình 3591
▁sít 3592
▁sò 3593
▁sòng 3594
▁sóc 3595
▁sói 3596
▁sóng 3597
▁sót 3598
▁sô 3599
▁sôi 3600
▁sông 3601
▁sùi 3602
▁sùng 3603
▁sú 3604
▁súc 3605
▁súng 3606
▁súp 3607
▁sút 3608
▁săn 3609
▁sĩ 3610
▁sơ 3611
▁sơn 3612
▁sư 3613
▁sưa 3614
▁sưng 3615
▁sưu 3616
▁sương 3617
▁sướng 3618
▁sườn 3619
▁sưởi 3620
▁sạc 3621
▁sạch 3622
▁sạm 3623
▁sạn 3624
▁sạp 3625
▁sạt 3626
▁sả 3627
▁sản 3628
▁sảng 3629
▁sảnh 3630
▁sấp 3631
▁sấu 3632
▁sấy 3633
▁sầm 3634
▁sần 3635
▁sầu 3636
▁sẩy 3637
▁sập 3638
▁sắc 3639
▁sắm 3640
▁sắn 3641
▁sắp 3642
▁sắt 3643
▁sẵn 3644
▁sặc 3645
▁sẹo 3646
▁sẻ 3647
▁sẽ 3648
▁sến 3649
▁sếp 3650
▁sệt 3651
▁sỉ 3652
▁sọ 3653
▁sọc 3654
▁sọt 3655
▁sỏi 3656
▁số 3657
▁sốc 3658
▁sống 3659
▁sốt 3660
▁sồn 3661
▁sổ 3662
▁sớ 3663
▁sớm 3664
▁sờ 3665
▁sở 3666
▁sởi 3667
▁sợ 3668
▁sợi 3669
▁sụ 3670
▁sục 3671
▁sụn 3672
▁sụp 3673
▁sụt 3674
▁sủa 3675
▁sủi 3676
▁sứ 3677
▁sức 3678
▁sứt 3679
▁sừng 3680
▁sử 3681
▁sửa 3682
▁sữa 3683
▁sự 3684
▁sỹ 3685
▁t 3686
▁ta 3687
▁tai 3688
▁tam 3689
▁tan 3690
▁tang 3691
▁tanh 3692
▁tao 3693
▁tau 3694
▁taxi 3695
▁tay 3696
▁te 3697
▁team 3698
▁tech 3699
▁techcombank 3700
▁tem 3701
▁ten 3702
▁teo 3703
▁test 3704
▁th 3705
▁tha 3706
▁thai 3707
▁tham 3708
▁than 3709
▁thang 3710
▁thanh 3711
▁thank 3712
▁thao 3713
▁thau 3714
▁thay 3715
▁the 3716
▁then 3717
▁theo 3718
▁thi 3719
▁thinh 3720
▁thiu 3721
▁thiêm 3722
▁thiên 3723
▁thiêng 3724
▁thiêu 3725
▁thiếp 3726
▁thiết 3727
▁thiếu 3728
▁thiền 3729
▁thiều 3730
▁thiểu 3731
▁thiện 3732
▁thiệp 3733
▁thiệt 3734
▁thiệu 3735
▁tho 3736
▁thoa 3737
▁thon 3738
▁thong 3739
▁thoái 3740
▁thoáng 3741
▁thoát 3742
▁thoại 3743
▁thoải 3744
▁thoảng 3745
▁thu 3746
▁thua 3747
▁thui 3748
▁thun 3749
▁thung 3750
▁thuy 3751
▁thuyên 3752
▁thuyết 3753
▁thuyền 3754
▁thuê 3755
▁thuấn 3756
▁thuần 3757
▁thuẫn 3758
▁thuận 3759
▁thuật 3760
▁thuế 3761
▁thuốc 3762
▁thuộc 3763
▁thuột 3764
▁thuở 3765
▁thy 3766
▁thà 3767
▁thành 3768
▁thác 3769
▁thách 3770
▁thái 3771
▁thám 3772
▁tháng 3773
▁thánh 3774
▁tháo 3775
▁tháp 3776
▁thâm 3777
▁thân 3778
▁thâu 3779
▁thây 3780
▁thèm 3781
▁thép 3782
▁thét 3783
▁thê 3784
▁thêm 3785
▁thêu 3786
▁thì 3787
▁thìa 3788
▁thìn 3789
▁thình 3790
▁thí 3791
▁thích 3792
▁thím 3793
▁thính 3794
▁thò 3795
▁thòi 3796
▁thóc 3797
▁thói 3798
▁thô 3799
▁thôi 3800
▁thôn 3801
▁thông 3802
▁thù 3803
▁thùng 3804
▁thùy 3805
▁thú 3806
▁thúc 3807
▁thúi 3808
▁thúy 3809
▁thăm 3810
▁thăng 3811
▁thơ 3812
▁thơi 3813
▁thơm 3814
▁thư 3815
▁thưa 3816
▁thương 3817
▁thước 3818
▁thường 3819
▁thưởng 3820
▁thượng 3821
▁thạc 3822
▁thạch 3823
▁thạnh 3824
▁thạo 3825
▁thả 3826
▁thải 3827
▁thảm 3828
▁thản 3829
▁thảnh 3830
▁thảo 3831
▁thảy 3832
▁thấm 3833
▁thấp 3834
▁thất 3835
▁thấu 3836
▁thấy 3837
▁thầm 3838
▁thần 3839
▁thầu 3840
▁thầy 3841
▁thẩm 3842
▁thậm 3843
▁thận 3844
▁thập 3845
▁thật 3846
▁thắc 3847
▁thắm 3848
▁thắn 3849
▁thắng 3850
▁thắp 3851
▁thắt 3852
▁thằng 3853
▁thẳm 3854
▁thẳng 3855
▁thẹn 3856
▁thẹo 3857
▁thẻ 3858
▁thế 3859
▁thề 3860
▁thềm 3861
▁thể 3862
▁thỉ 3863
▁thỉnh 3864
▁thỉu 3865
▁thị 3866
▁thịnh 3867
▁thịt 3868
▁thọ 3869
▁thọt 3870
▁thỏ 3871
▁thỏa 3872
▁thối 3873
▁thốn 3874
▁thống 3875
▁thốt 3876
▁thổ 3877
▁thổi 3878
▁thới 3879
▁thớt 3880
▁thờ 3881
▁thời 3882
▁thở 3883
▁thợ 3884
▁thụ 3885
▁thục 3886
▁thụt 3887
▁thụy 3888
▁thủ 3889
▁thủi 3890
▁thủng 3891
▁thủy 3892
▁thứ 3893
▁thức 3894
▁thừa 3895
▁thử 3896
▁thửa 3897
▁thự 3898
▁thực 3899
▁ti 3900
▁tia 3901
▁tiger 3902
▁tik 3903
▁tiktok 3904
▁tim 3905
▁time 3906
▁tin 3907
▁tinh 3908
▁tivi 3909
▁tiêm 3910
▁tiên 3911
▁tiêu 3912
▁tiếc 3913
▁tiến 3914
▁tiếng 3915
▁tiếp 3916
▁tiết 3917
▁tiếu 3918
▁tiềm 3919
▁tiền 3920
▁tiểu 3921
▁tiễn 3922
▁tiệc 3923
▁tiệm 3924
▁tiện 3925
▁tiệp 3926
▁tiệt 3927
▁to 3928
▁toa 3929
▁toan 3930
▁toang 3931
▁toi 3932
▁toilet 3933
▁ton 3934
▁top 3935
▁tour 3936
▁toàn 3937
▁toán 3938
▁toát 3939
▁toét 3940
▁toại 3941
▁toản 3942
▁tr 3943
▁tra 3944
▁trai 3945
▁trang 3946
▁tranh 3947
▁trao 3948
▁trau 3949
▁tre 3950
▁treo 3951
▁tri 3952
▁trinh 3953
▁triết 3954
▁triền 3955
▁triều 3956
▁triển 3957
▁triệt 3958
▁triệu 3959
▁tro 3960
▁trong 3961
▁tru 3962
▁trung 3963
▁truy 3964
▁truyền 3965
▁truyện 3966
▁truồng 3967
▁trà 3968
▁tràm 3969
▁tràn 3970
▁tràng 3971
▁trào 3972
▁trá 3973
▁trác 3974
▁trách 3975
▁trái 3976
▁trám 3977
▁trán 3978
▁tráng 3979
▁tránh 3980
▁trâm 3981
▁trân 3982
▁trâu 3983
▁trãi 3984
▁trèo 3985
▁trê 3986
▁trên 3987
▁trêu 3988
▁trì 3989
▁trình 3990
▁trí 3991
▁trích 3992
▁trò 3993
▁tròn 3994
▁tróc 3995
▁trói 3996
▁trót 3997
▁trôi 3998
▁trông 3999
▁trù 4000
▁trùm 4001
▁trùng 4002
▁trú 4003
▁trúc 4004
▁trúng 4005
▁trút 4006
▁trăm 4007
▁trăn 4008
▁trăng 4009
▁trĩ 4010
▁trơ 4011
▁trơn 4012
▁trưa 4013
▁trưng 4014
▁trương 4015
▁trước 4016
▁trường 4017
▁trưởng 4018
▁trượt 4019
▁trạch 4020
▁trại 4021
▁trạm 4022
▁trạng 4023
▁trả 4024
▁trải 4025
▁trảng 4026
▁trấn 4027
▁trấu 4028
▁trầm 4029
▁trần 4030
▁trầu 4031
▁trầy 4032
▁trận 4033
▁trật 4034
▁trắc 4035
▁trắm 4036
▁trắng 4037
▁trặc 4038
▁trẻ 4039
▁trẻo 4040
▁trển 4041
▁trễ 4042
▁trệt 4043
▁trị 4044
▁trịnh 4045
▁trọ 4046
▁trọc 4047
▁trọi 4048
▁trọn 4049
▁trọng 4050
▁trọt 4051
▁trỏng 4052
▁trốn 4053
▁trống 4054
▁trồng 4055
▁trổ 4056
▁trỗi 4057
▁trội 4058
▁trộm 4059
▁trộn 4060
▁trời 4061
▁trở 4062
▁trợ 4063
▁trợn 4064
▁trụ 4065
▁trục 4066
▁trứng 4067
▁trừ 4068
▁trừng 4069
▁trữ 4070
▁trực 4071
▁tu 4072
▁tua 4073
▁tui 4074
▁tum 4075
▁tung 4076
▁tuy 4077
▁tuyên 4078
▁tuyến 4079
▁tuyết 4080
▁tuyền 4081
▁tuyển 4082
▁tuyệt 4083
▁tuân 4084
▁tuôn 4085
▁tuông 4086
▁tuýp 4087
▁tuấn 4088
▁tuất 4089
▁tuần 4090
▁tuệ 4091
▁tuốt 4092
▁tuồng 4093
▁tuổi 4094
▁tuột 4095
▁ty 4096
▁tà 4097
▁tài 4098
▁tàn 4099
▁tàng 4100
▁tành 4101
▁tào 4102
▁tàu 4103
▁tá 4104
▁tác 4105
▁tách 4106
▁tái 4107
▁tám 4108
▁tán 4109
▁táng 4110
▁tánh 4111
▁táo 4112
▁táp 4113
▁tát 4114
▁tâm 4115
▁tân 4116
▁tây 4117
▁tã 4118
▁tè 4119
▁tèn 4120
▁tèo 4121
▁té 4122
▁tép 4123
▁tét 4124
▁tê 4125
▁tên 4126
▁tì 4127
▁tìm 4128
▁tình 4129
▁tí 4130
▁tía 4131
▁tích 4132
▁tím 4133
▁tín 4134
▁tính 4135
▁tít 4136
▁tò 4137
▁tòa 4138
▁tòi 4139
▁tòng 4140
▁tó 4141
▁tóc 4142
▁tóm 4143
▁tóp 4144
▁tô 4145
▁tôi 4146
▁tôm 4147
▁tôn 4148
▁tông 4149
▁tù 4150
▁tùm 4151
▁tùng 4152
▁tùy 4153
▁tú 4154
▁túc 4155
▁túi 4156
▁túm 4157
▁túng 4158
▁tút 4159
▁túy 4160
▁tý 4161
▁tăm 4162
▁tăn 4163
▁tăng 4164
▁tĩnh 4165
▁tơ 4166
▁tơi 4167
▁tư 4168
▁tưng 4169
▁tươi 4170
▁tương 4171
▁tước 4172
▁tưới 4173
▁tướng 4174
▁tường 4175
▁tưởng 4176
▁tượng 4177
▁tạ 4178
▁tạc 4179
▁tạch 4180
▁tại 4181
▁tạm 4182
▁tạng 4183
▁tạnh 4184
▁tạo 4185
▁tạp 4186
▁tạt 4187
▁tả 4188
▁tải 4189
▁tản 4190
▁tảng 4191
▁tảo 4192
▁tấc 4193
▁tấm 4194
▁tấn 4195
▁tấp 4196
▁tất 4197
▁tấu 4198
▁tầm 4199
▁tần 4200
▁tầng 4201
▁tẩm 4202
▁tẩu 4203
▁tẩy 4204
▁tận 4205
▁tập 4206
▁tật 4207
▁tắc 4208
▁tắm 4209
▁tắt 4210
▁tằm 4211
▁tặc 4212
▁tặng 4213
▁tẹo 4214
▁tẹt 4215
▁tẻ 4216
▁tế 4217
▁tết 4218
▁tề 4219
▁tể 4220
▁tệ 4221
▁tệp 4222
▁tỉ 4223
▁tỉa 4224
▁tỉnh 4225
▁tị 4226
▁tịch 4227
▁tịnh 4228
▁tịt 4229
▁tọa 4230
▁tỏ 4231
▁tỏa 4232
▁tỏi 4233
▁tố 4234
▁tốc 4235
▁tối 4236
▁tốn 4237
▁tống 4238
▁tốp 4239
▁tốt 4240
▁tồi 4241
▁tồn 4242
▁tổ 4243
▁tổn 4244
▁tổng 4245
▁tộc 4246
▁tội 4247
▁tớ 4248
▁tới 4249
▁tờ 4250
▁tở 4251
▁tởm 4252
▁tụ 4253
▁tục 4254
▁tụi 4255
▁tụng 4256
▁tụt 4257
▁tụy 4258
▁tủ 4259
▁tủi 4260
▁tủy 4261
▁tứ 4262
▁tức 4263
▁từ 4264
▁từa 4265
▁từng 4266
▁tử 4267
▁tự 4268
▁tựa 4269
▁tựu 4270
▁tỵ 4271
▁tỷ 4272
▁u 4273
▁ui 4274
▁uk 4275
▁ukrain 4276
▁ukraine 4277
▁um 4278
▁un 4279
▁ung 4280
▁up 4281
▁uy 4282
▁uyên 4283
▁uyển 4284
▁uông 4285
▁uý 4286
▁uýnh 4287
▁uất 4288
▁uốn 4289
▁uống 4290
▁uổng 4291
▁v 4292
▁va 4293
▁vai 4294
▁vali 4295
▁van 4296
▁vang 4297
▁vat 4298
▁vay 4299
▁ve 4300
▁ven 4301
▁vi 4302
▁vid 4303
▁video 4304
▁viet 4305
▁vietcombank 4306
▁vietin 4307
▁vietinbank 4308
▁viettel 4309
▁view 4310
▁vin 4311
▁vina 4312
▁vincom 4313
▁vinh 4314
▁vinhome 4315
▁vip 4316
▁virus 4317
▁vis 4318
▁visa 4319
▁vision 4320
▁vit 4321
▁vitamin 4322
▁viêm 4323
▁viên 4324
▁viếng 4325
▁viết 4326
▁viền 4327
▁viễn 4328
▁việ 4329
▁việc 4330
▁viện 4331
▁việt 4332
▁vo 4333
▁voi 4334
▁vong 4335
▁voucher 4336
▁vp 4337
▁vpbank 4338
▁vu 4339
▁vua 4340
▁vui 4341
▁vun 4342
▁vung 4343
▁vuông 4344
▁vuốt 4345
▁vy 4346
▁và 4347
▁vài 4348
▁vàn 4349
▁vàng 4350
▁vành 4351
▁vào 4352
▁vá 4353
▁vác 4354
▁vách 4355
▁vái 4356
▁ván 4357
▁váng 4358
▁vát 4359
▁váy 4360
▁vân 4361
▁vâng 4362
▁vây 4363
▁vã 4364
▁vãi 4365
▁vãn 4366
▁vèo 4367
▁vé 4368
▁vén 4369
▁vét 4370
▁vê 4371
▁vênh 4372
▁vì 4373
▁ví 4374
▁vía 4375
▁vít 4376
▁vò 4377
▁vòi 4378
▁vòm 4379
▁vòng 4380
▁vóc 4381
▁vô 4382
▁vôi 4383
▁võ 4384
▁võng 4385
▁vù 4386
▁vùi 4387
▁vùng 4388
▁vú 4389
▁văn 4390
▁văng 4391
▁vĩ 4392
▁vĩnh 4393
▁vũ 4394
▁vũng 4395
▁vơ 4396
▁vơi 4397
▁vươn 4398
▁vương 4399
▁vướng 4400
▁vườn 4401
▁vượng 4402
▁vượt 4403
▁vạ 4404
▁vạch 4405
▁vạn 4406
▁vạt 4407
▁vả 4408
▁vải 4409
▁vấn 4410
▁vấp 4411
▁vất 4412
▁vần 4413
▁vầng 4414
▁vầy 4415
▁vẩn 4416
▁vẩy 4417
▁vẫn 4418
▁vẫy 4419
▁vận 4420
▁vật 4421
▁vậy 4422
▁vắc 4423
▁vắng 4424
▁vắt 4425
▁vằn 4426
▁vặn 4427
▁vặt 4428
▁vẹn 4429
▁vẹo 4430
▁vẹt 4431
▁vẻ 4432
▁vẽ 4433
▁vế 4434
▁vết 4435
▁về 4436
▁vệ 4437
▁vỉ 4438
▁vỉa 4439
▁vị 4440
▁vịn 4441
▁vịnh 4442
▁vịt 4443
▁vọng 4444
▁vọt 4445
▁vỏ 4446
▁vốn 4447
▁vồ 4448
▁vỗ 4449
▁vội 4450
▁vớ 4451
▁với 4452
▁vớt 4453
▁vờ 4454
▁vời 4455
▁vở 4456
▁vỡ 4457
▁vợ 4458
▁vợt 4459
▁vụ 4460
▁vụn 4461
▁vụng 4462
▁vụt 4463
▁vứt 4464
▁vừa 4465
▁vừng 4466
▁vữa 4467
▁vững 4468
▁vựa 4469
▁vực 4470
▁vựng 4471
▁vỹ 4472
▁w 4473
▁wa 4474
▁wave 4475
▁we 4476
▁web 4477
▁website 4478
▁wechat 4479
▁wh 4480
▁wi 4481
▁wifi 4482
▁win 4483
▁wor 4484
▁world 4485
▁x 4486
▁xa 4487
▁xanh 4488
▁xao 4489
▁xay 4490
▁xe 4491
▁xem 4492
▁xen 4493
▁xi 4494
▁xin 4495
▁xinh 4496
▁xiêm 4497
▁xiên 4498
▁xiếc 4499
▁xo 4500
▁xoa 4501
▁xoan 4502
▁xoang 4503
▁xoay 4504
▁xong 4505
▁xoong 4506
▁xoài 4507
▁xoáy 4508
▁xoăn 4509
▁xoắn 4510
▁xu 4511
▁xua 4512
▁xui 4513
▁xung 4514
▁xuy 4515
▁xuyên 4516
▁xuyến 4517
▁xuân 4518
▁xuôi 4519
▁xuất 4520
▁xuống 4521
▁xuồng 4522
▁xà 4523
▁xài 4524
▁xàm 4525
▁xào 4526
▁xá 4527
▁xác 4528
▁xách 4529
▁xám 4530
▁xáo 4531
▁xát 4532
▁xâm 4533
▁xây 4534
▁xã 4535
▁xèo 4536
▁xé 4537
▁xém 4538
▁xéo 4539
▁xét 4540
▁xê 4541
▁xì 4542
▁xìu 4543
▁xí 4544
▁xích 4545
▁xít 4546
▁xíu 4547
▁xòe 4548
▁xó 4549
▁xóa 4550
▁xóc 4551
▁xóm 4552
▁xót 4553
▁xô 4554
▁xôi 4555
▁xôn 4556
▁xông 4557
▁xù 4558
▁xùm 4559
▁xúc 4560
▁xúi 4561
▁xúm 4562
▁xăm 4563
▁xăng 4564
▁xơ 4565
▁xơi 4566
▁xưa 4567
▁xưng 4568
▁xương 4569
▁xước 4570
▁xướng 4571
▁xưởng 4572
▁xạ 4573
▁xạo 4574
▁xả 4575
▁xảo 4576
▁xảy 4577
▁xấp 4578
▁xấu 4579
▁xắn 4580
▁xẹp 4581
▁xẹt 4582
▁xẻ 4583
▁xẻo 4584
▁xế 4585
▁xếp 4586
▁xệ 4587
▁xỉ 4588
▁xỉa 4589
▁xỉn 4590
▁xỉu 4591
▁xị 4592
▁xịn 4593
▁xịt 4594
▁xỏ 4595
▁xối 4596
▁xốp 4597
▁xổ 4598
▁xộn 4599
▁xới 4600
▁xứ 4601
▁xức 4602
▁xứng 4603
▁xử 4604
▁y 4605
▁yoga 4606
▁you 4607
▁youtu 4608
▁youtube 4609
▁yên 4610
▁yêu 4611
▁yếm 4612
▁yến 4613
▁yết 4614
▁yếu 4615
▁z 4616
▁zalo 4617
▁zin 4618
▁à 4619
▁ào 4620
▁á 4621
▁ác 4622
▁ách 4623
▁ái 4624
▁ám 4625
▁án 4626
▁áng 4627
▁ánh 4628
▁áo 4629
▁áp 4630
▁át 4631
▁áy 4632
▁âm 4633
▁ân 4634
▁âu 4635
▁ây 4636
▁ém 4637
▁én 4638
▁éo 4639
▁ép 4640
▁ét 4641
▁ê 4642
▁êm 4643
▁ên 4644
▁ì 4645
▁í 4646
▁ích 4647
▁ít 4648
▁òa 4649
▁ó 4650
▁óc 4651
▁ói 4652
▁ô 4653
▁ôi 4654
▁ôm 4655
▁ôn 4656
▁ông 4657
▁ù 4658
▁ùa 4659
▁ùn 4660
▁ú 4661
▁úc 4662
▁úi 4663
▁úng 4664
▁úp 4665
▁út 4666
▁úy 4667
▁ý 4668
▁ăn 4669
▁đ 4670
▁đa 4671
▁đai 4672
▁đam 4673
▁đan 4674
▁đang 4675
▁đanh 4676
▁đao 4677
▁đau 4678
▁đe 4679
▁đem 4680
▁đen 4681
▁đeo 4682
▁đi 4683
▁đinh 4684
▁điên 4685
▁điêu 4686
▁điếc 4687
▁điếm 4688
▁điếu 4689
▁điềm 4690
▁điền 4691
▁điều 4692
▁điểm 4693
▁điển 4694
▁điệ 4695
▁điện 4696
▁điệp 4697
▁điệu 4698
▁đo 4699
▁đoan 4700
▁đong 4701
▁đoàn 4702
▁đoán 4703
▁đoạn 4704
▁đoạt 4705
▁đu 4706
▁đua 4707
▁đun 4708
▁đuôi 4709
▁đuối 4710
▁đuổi 4711
▁đà 4712
▁đài 4713
▁đàm 4714
▁đàn 4715
▁đàng 4716
▁đành 4717
▁đào 4718
▁đày 4719
▁đá 4720
▁đái 4721
▁đám 4722
▁đán 4723
▁đáng 4724
▁đánh 4725
▁đáo 4726
▁đáp 4727
▁đát 4728
▁đáy 4729
▁đâ 4730
▁đâm 4731
▁đâu 4732
▁đây 4733
▁đã 4734
▁đãi 4735
▁đãng 4736
▁đè 4737
▁đèn 4738
▁đèo 4739
▁đéc 4740
▁đéo 4741
▁đét 4742
▁đê 4743
▁đêm 4744
▁đì 4745
▁đình 4746
▁đích 4747
▁đính 4748
▁đít 4749
▁đò 4750
▁đòi 4751
▁đòn 4752
▁đó 4753
▁đóa 4754
▁đói 4755
▁đóm 4756
▁đón 4757
▁đóng 4758
▁đô 4759
▁đôi 4760
▁đôn 4761
▁đông 4762
▁đù 4763
▁đùa 4764
▁đùi 4765
▁đùm 4766
▁đùn 4767
▁đùng 4768
▁đú 4769
▁đúc 4770
▁đúng 4771
▁đúp 4772
▁đút 4773
▁đăng 4774
▁đĩ 4775
▁đĩa 4776
▁đũa 4777
▁đơ 4778
▁đơn 4779
▁đư 4780
▁đưa 4781
▁đương 4782
▁đường 4783
▁được 4784
▁đạc 4785
▁đại 4786
▁đạm 4787
▁đạn 4788
▁đạo 4789
▁đạp 4790
▁đạt 4791
▁đả 4792
▁đảm 4793
▁đảng 4794
▁đảo 4795
▁đấm 4796
▁đất 4797
▁đấu 4798
▁đấy 4799
▁đầm 4800
▁đần 4801
▁đầu 4802
▁đầy 4803
▁đẩy 4804
▁đẫm 4805
▁đậm 4806
▁đập 4807
▁đật 4808
▁đậu 4809
▁đậy 4810
▁đắc 4811
▁đắm 4812
▁đắn 4813
▁đắng 4814
▁đắp 4815
▁đắt 4816
▁đằng 4817
▁đẳng 4818
▁đặc 4819
▁đặn 4820
▁đặng 4821
▁đặt 4822
▁đẹp 4823
▁đẻ 4824
▁đẽ 4825
▁đế 4826
▁đếch 4827
▁đếm 4828
▁đến 4829
▁đề 4830
▁đền 4831
▁đều 4832
▁để 4833
▁đểu 4834
▁đệ 4835
▁đệm 4836
▁đỉnh 4837
▁đị 4838
▁địa 4839
▁địch 4840
▁định 4841
▁địt 4842
▁đọc 4843
▁đọng 4844
▁đọt 4845
▁đỏ 4846
▁đố 4847
▁đốc 4848
▁đối 4849
▁đốm 4850
▁đốn 4851
▁đống 4852
▁đốt 4853
▁đồ 4854
▁đồi 4855
▁đồn 4856
▁đồng 4857
▁đổ 4858
▁đổi 4859
▁đổng 4860
▁đỗ 4861
▁độ 4862
▁độc 4863
▁đội 4864
▁độn 4865
▁động 4866
▁đột 4867
▁đới 4868
▁đớn 4869
▁đớp 4870
▁đờ 4871
▁đời 4872
▁đờm 4873
▁đỡ 4874
▁đợi 4875
▁đợt 4876
▁đụ 4877
▁đục 4878
▁đụng 4879
▁đủ 4880
▁đứ 4881
▁đứa 4882
▁đức 4883
▁đứng 4884
▁đứt 4885
▁đừng 4886
▁đực 4887
▁đựng 4888
▁ĩ 4889
▁ơ 4890
▁ơi 4891
▁ơn 4892
▁ư 4893
▁ưa 4894
▁ưm 4895
▁ưng 4896
▁ưu 4897
▁ươm 4898
▁ương 4899
▁ước 4900
▁ướp 4901
▁ướt 4902
▁ạ 4903
▁ạt 4904
▁ả 4905
▁ải 4906
▁ảnh 4907
▁ảo 4908
▁ấm 4909
▁ấn 4910
▁ấp 4911
▁ất 4912
▁ấu 4913
▁ấy 4914
▁ầm 4915
▁ẩm 4916
▁ẩn 4917
▁ẩu 4918
▁ập 4919
▁ắc 4920
▁ắng 4921
▁ẵm 4922
▁ẹ 4923
▁ẹc 4924
▁ế 4925
▁ếch 4926
▁ỉ 4927
▁ỉa 4928
▁ị 4929
▁ọ 4930
▁ỏi 4931
▁ố 4932
▁ốc 4933
▁ối 4934
▁ốm 4935
▁ống 4936
▁ốp 4937
▁ốt 4938
▁ồ 4939
▁ồn 4940
▁ổ 4941
▁ổi 4942
▁ổn 4943
▁ổng 4944
▁ớ 4945
▁ới 4946
▁ớn 4947
▁ớt 4948
▁ờ 4949
▁ời 4950
▁ờm 4951
▁ở 4952
▁ợ 4953
▁ủ 4954
▁ủa 4955
▁ủi 4956
▁ủng 4957
▁ủy 4958
▁ứ 4959
▁ứa 4960
▁ức 4961
▁ứng 4962
▁ừ 4963
▁ừa 4964
▁ừm 4965
▁ỷ 4966
<sos/eos> 4967
, 4968
. 4969
? 4970
! 4971
